{
  "token_to_id": {
    "<PAD>": 0,
    "<UNK>": 1,
    "<BOS>": 2,
    "<EOS>": 3,
    "\n": 4,
    " ": 5,
    "'": 6,
    ",": 7,
    "-": 8,
    ".": 9,
    "1": 10,
    ":": 11,
    ";": 12,
    "?": 13,
    "A": 14,
    "B": 15,
    "C": 16,
    "D": 17,
    "E": 18,
    "F": 19,
    "G": 20,
    "H": 21,
    "I": 22,
    "K": 23,
    "L": 24,
    "M": 25,
    "N": 26,
    "O": 27,
    "P": 28,
    "Q": 29,
    "R": 30,
    "S": 31,
    "T": 32,
    "U": 33,
    "V": 34,
    "W": 35,
    "a": 36,
    "b": 37,
    "c": 38,
    "d": 39,
    "e": 40,
    "f": 41,
    "g": 42,
    "h": 43,
    "i": 44,
    "j": 45,
    "k": 46,
    "l": 47,
    "m": 48,
    "n": 49,
    "o": 50,
    "p": 51,
    "q": 52,
    "r": 53,
    "s": 54,
    "t": 55,
    "u": 56,
    "v": 57,
    "w": 58,
    "x": 59,
    "y": 60,
    "z": 61,
    "</w>": 62,
    "at": 63,
    "s</w>": 64,
    "on": 65,
    ":</w>": 66,
    "or": 67,
    "in": 68,
    "er": 69,
    "ion": 70,
    "e</w>": 71,
    "en": 72,
    "tion": 73,
    "es": 74,
    "is</w>": 75,
    "a</w>": 76,
    "an": 77,
    "at</w>": 78,
    "hat</w>": 79,
    "ate": 80,
    "ar": 81,
    "ing": 82,
    "An": 83,
    "al": 84,
    "gor": 85,
    "ues": 86,
    "wer": 87,
    "ategor": 88,
    "ategory": 89,
    "swer": 90,
    "Category": 91,
    "Category:</w>": 92,
    "Ques": 93,
    "Question": 94,
    "Question:</w>": 95,
    "?</w>": 96,
    "Answer": 97,
    "Answer:</w>": 98,
    ".</w>": 99,
    "What</w>": 100,
    "d</w>": 101,
    "th": 102,
    "ing</w>": 103,
    "t</w>": 104,
    "re": 105,
    "to": 106,
    "el": 107,
    "es</w>": 108,
    "ear": 109,
    "ation": 110,
    "ch": 111,
    "for": 112,
    "earn": 113,
    "ic": 114,
    "od": 115,
    "er</w>": 116,
    "y</w>": 117,
    "te": 118,
    "ro": 119,
    "al</w>": 120,
    "ti": 121,
    "an</w>": 122,
    "to</w>": 123,
    ",</w>": 124,
    "earning</w>": 125,
    "se": 126,
    "enc": 127,
    "tr": 128,
    "mod": 129,
    "li": 130,
    "on</w>": 131,
    "A</w>": 132,
    "form": 133,
    "model": 134,
    "and</w>": 135,
    "ur": 136,
    "Learning</w>": 137,
    "that</w>": 138,
    "ec": 139,
    "dat": 140,
    "tion</w>": 141,
    "mp": 142,
    "ation</w>": 143,
    "or</w>": 144,
    "Py": 145,
    "Pyth": 146,
    "in</w>": 147,
    "of": 148,
    "as": 149,
    "con": 150,
    "ach": 151,
    "the</w>": 152,
    "ken": 153,
    "m</w>": 154,
    "iz": 155,
    "ne": 156,
    "p</w>": 157,
    "ence</w>": 158,
    "co": 159,
    "ts</w>": 160,
    "ans": 161,
    "Python</w>": 162,
    "ac": 163,
    "pre": 164,
    "token": 165,
    "is": 166,
    "s.</w>": 167,
    "ul": 168,
    "ansform": 169,
    "ab": 170,
    "of</w>": 171,
    "ee": 172,
    "val": 173,
    "res": 174,
    "ine</w>": 175,
    "le": 176,
    "us": 177,
    "Tr": 178,
    "le</w>": 179,
    "pro": 180,
    "att": 181,
    "achine</w>": 182,
    "ent</w>": 183,
    "data</w>": 184,
    "ers</w>": 185,
    "model</w>": 186,
    "Transform": 187,
    "dic": 188,
    "un": 189,
    "eep</w>": 190,
    "ag": 191,
    "tex": 192,
    "ain": 193,
    "me": 194,
    "si": 195,
    "lo": 196,
    "di": 197,
    "fic": 198,
    "Machine</w>": 199,
    "Deep</w>": 200,
    "predic": 201,
    "ang": 202,
    "valu": 203,
    "wor": 204,
    "ut": 205,
    "ed</w>": 206,
    "train": 207,
    "tel": 208,
    "st": 209,
    "w</w>": 210,
    "ing?</w>": 211,
    "ut</w>": 212,
    "fici": 213,
    "telli": 214,
    "tellig": 215,
    "ent": 216,
    "ex": 217,
    "mb": 218,
    "su": 219,
    "par": 220,
    "tifici": 221,
    "tificial</w>": 222,
    "ra": 223,
    "it": 224,
    "ch</w>": 225,
    "rep": 226,
    "ma": 227,
    "qu": 228,
    "ci": 229,
    "ith": 230,
    "po": 231,
    "can</w>": 232,
    "en</w>": 233,
    "text</w>": 234,
    "atten": 235,
    "ys": 236,
    "age</w>": 237,
    "learn": 238,
    "id": 239,
    "wh": 240,
    "Dat": 241,
    "Data</w>": 242,
    "Transformers</w>": 243,
    "sed</w>": 244,
    "for</w>": 245,
    "aliz": 246,
    "NL": 247,
    "NLP": 248,
    "angu": 249,
    "token</w>": 250,
    "LL": 251,
    "LLM": 252,
    "LLMs</w>": 253,
    "telligence</w>": 254,
    "e.</w>": 255,
    "An</w>": 256,
    "AI": 257,
    "uc": 258,
    "all": 259,
    "In": 260,
    "cience</w>": 261,
    "mm": 262,
    "ation?</w>": 263,
    "o</w>": 264,
    "cor": 265,
    "NLP</w>": 266,
    "langu": 267,
    "Ar": 268,
    "Artificial</w>": 269,
    "comp": 270,
    "repres": 271,
    "gra": 272,
    "fro": 273,
    "from</w>": 274,
    "put</w>": 275,
    "la": 276,
    "Intelligence</w>": 277,
    "ol": 278,
    "dec": 279,
    "be": 280,
    "language</w>": 281,
    "attention</w>": 282,
    "Science</w>": 283,
    "with": 284,
    "ve</w>": 285,
    "do": 286,
    "data": 287,
    "ener": 288,
    "k</w>": 289,
    "values</w>": 290,
    "AI</w>": 291,
    "ision": 292,
    "ly</w>": 293,
    "t.</w>": 294,
    "ver": 295,
    "cur": 296,
    "net": 297,
    "networ": 298,
    "fi": 299,
    "per": 300,
    "s,</w>": 301,
    "by</w>": 302,
    "ig": 303,
    "gener": 304,
    "amp": 305,
    "ure</w>": 306,
    "ther</w>": 307,
    "eat": 308,
    "sequ": 309,
    "sys": 310,
    "syste": 311,
    "pp": 312,
    "cl": 313,
    "ates</w>": 314,
    "ted</w>": 315,
    "tion?</w>": 316,
    "er?</w>": 317,
    "lay": 318,
    "orm": 319,
    "e?</w>": 320,
    "oc": 321,
    "are</w>": 322,
    "ations</w>": 323,
    "ces": 324,
    "learning</w>": 325,
    "as</w>": 326,
    "into</w>": 327,
    "one</w>": 328,
    "neur": 329,
    "fun": 330,
    "func": 331,
    "used</w>": 332,
    "with</w>": 333,
    "sp": 334,
    "ir": 335,
    "proces": 336,
    "ho": 337,
    "tim": 338,
    "out": 339,
    "str": 340,
    "able</w>": 341,
    "ame": 342,
    "ter</w>": 343,
    "norm": 344,
    "represent": 345,
    "ing.</w>": 346,
    "mak": 347,
    "op": 348,
    "patt": 349,
    "patter": 350,
    "pattern": 351,
    "ect": 352,
    "ds</w>": 353,
    "es.</w>": 354,
    "rec": 355,
    "input</w>": 356,
    "cal": 357,
    "neural</w>": 358,
    "normaliz": 359,
    "other</w>": 360,
    "tokens</w>": 361,
    "ated</w>": 362,
    "app": 363,
    "de": 364,
    "os": 365,
    "no": 366,
    "decision": 367,
    "des": 368,
    "how</w>": 369,
    "y.</w>": 370,
    "'s</w>": 371,
    "ampl": 372,
    "prediction": 373,
    "we": 374,
    "its</w>": 375,
    "clas": 376,
    "feat": 377,
    "ure": 378,
    "training</w>": 379,
    "parame": 380,
    "tiv": 381,
    "scor": 382,
    "tas": 383,
    "gn": 384,
    "rel": 385,
    "learn</w>": 386,
    "whi": 387,
    "ular": 388,
    "igh": 389,
    "Transformer</w>": 390,
    "tional</w>": 391,
    "sequenc": 392,
    "fin": 393,
    "ge</w>": 394,
    "act": 395,
    "rul": 396,
    "so</w>": 397,
    "use</w>": 398,
    "uses</w>": 399,
    "ps</w>": 400,
    "set</w>": 401,
    "cont": 402,
    "nu": 403,
    "der": 404,
    "ures</w>": 405,
    "abi": 406,
    "abili": 407,
    "network": 408,
    "function</w>": 409,
    "gradi": 410,
    "each": 411,
    "each</w>": 412,
    "sm": 413,
    "small": 414,
    "comm": 415,
    "system</w>": 416,
    "prob": 417,
    "inform": 418,
    "patterns</w>": 419,
    "ual</w>": 420,
    "ff": 421,
    "bec": 422,
    "transform": 423,
    "struc": 424,
    "value</w>": 425,
    "model's</w>": 426,
    "ting</w>": 427,
    "x</w>": 428,
    "ri": 429,
    "ad": 430,
    "ed": 431,
    "il": 432,
    "anal": 433,
    "reco": 434,
    "recogn": 435,
    "ob": 436,
    "ment</w>": 437,
    "cho": 438,
    "pl": 439,
    "olu": 440,
    "it</w>": 441,
    "the": 442,
    "using</w>": 443,
    "information</w>": 444,
    "ents</w>": 445,
    "such</w>": 446,
    "text.</w>": 447,
    "ter": 448,
    "mat": 449,
    "rou": 450,
    "sion": 451,
    "var": 452,
    "ty</w>": 453,
    "uring</w>": 454,
    "est</w>": 455,
    "comple": 456,
    "when</w>": 457,
    "use": 458,
    "ful": 459,
    "am": 460,
    "posi": 461,
    "mor": 462,
    "training.</w>": 463,
    "befor": 464,
    "before</w>": 465,
    "output</w>": 466,
    "pr": 467,
    "ulti": 468,
    "network</w>": 469,
    "on?</w>": 470,
    "activ": 471,
    "mo": 472,
    "tri": 473,
    "process": 474,
    "emb": 475,
    "embed": 476,
    "embedd": 477,
    "ocab": 478,
    "ocabular": 479,
    "ke": 480,
    "artificial</w>": 481,
    "system": 482,
    "task": 483,
    "so": 484,
    "analys": 485,
    "representation</w>": 486,
    "stor": 487,
    "sh": 488,
    "progra": 489,
    "ic</w>": 490,
    "data.</w>": 491,
    "tic": 492,
    "diff": 493,
    "y,</w>": 494,
    "exampl": 495,
    "examples</w>": 496,
    "hel": 497,
    "chang": 498,
    "conver": 499,
    "sel": 500,
    "ate</w>": 501,
    "while</w>": 502,
    "ran": 503,
    "vi": 504,
    "ge": 505,
    "vari": 506,
    "meas": 507,
    "during</w>": 508,
    "fit": 509,
    "new</w>": 510,
    "useful": 511
  },
  "id_to_token": {
    "0": "<PAD>",
    "1": "<UNK>",
    "2": "<BOS>",
    "3": "<EOS>",
    "4": "\n",
    "5": " ",
    "6": "'",
    "7": ",",
    "8": "-",
    "9": ".",
    "10": "1",
    "11": ":",
    "12": ";",
    "13": "?",
    "14": "A",
    "15": "B",
    "16": "C",
    "17": "D",
    "18": "E",
    "19": "F",
    "20": "G",
    "21": "H",
    "22": "I",
    "23": "K",
    "24": "L",
    "25": "M",
    "26": "N",
    "27": "O",
    "28": "P",
    "29": "Q",
    "30": "R",
    "31": "S",
    "32": "T",
    "33": "U",
    "34": "V",
    "35": "W",
    "36": "a",
    "37": "b",
    "38": "c",
    "39": "d",
    "40": "e",
    "41": "f",
    "42": "g",
    "43": "h",
    "44": "i",
    "45": "j",
    "46": "k",
    "47": "l",
    "48": "m",
    "49": "n",
    "50": "o",
    "51": "p",
    "52": "q",
    "53": "r",
    "54": "s",
    "55": "t",
    "56": "u",
    "57": "v",
    "58": "w",
    "59": "x",
    "60": "y",
    "61": "z",
    "62": "</w>",
    "63": "at",
    "64": "s</w>",
    "65": "on",
    "66": ":</w>",
    "67": "or",
    "68": "in",
    "69": "er",
    "70": "ion",
    "71": "e</w>",
    "72": "en",
    "73": "tion",
    "74": "es",
    "75": "is</w>",
    "76": "a</w>",
    "77": "an",
    "78": "at</w>",
    "79": "hat</w>",
    "80": "ate",
    "81": "ar",
    "82": "ing",
    "83": "An",
    "84": "al",
    "85": "gor",
    "86": "ues",
    "87": "wer",
    "88": "ategor",
    "89": "ategory",
    "90": "swer",
    "91": "Category",
    "92": "Category:</w>",
    "93": "Ques",
    "94": "Question",
    "95": "Question:</w>",
    "96": "?</w>",
    "97": "Answer",
    "98": "Answer:</w>",
    "99": ".</w>",
    "100": "What</w>",
    "101": "d</w>",
    "102": "th",
    "103": "ing</w>",
    "104": "t</w>",
    "105": "re",
    "106": "to",
    "107": "el",
    "108": "es</w>",
    "109": "ear",
    "110": "ation",
    "111": "ch",
    "112": "for",
    "113": "earn",
    "114": "ic",
    "115": "od",
    "116": "er</w>",
    "117": "y</w>",
    "118": "te",
    "119": "ro",
    "120": "al</w>",
    "121": "ti",
    "122": "an</w>",
    "123": "to</w>",
    "124": ",</w>",
    "125": "earning</w>",
    "126": "se",
    "127": "enc",
    "128": "tr",
    "129": "mod",
    "130": "li",
    "131": "on</w>",
    "132": "A</w>",
    "133": "form",
    "134": "model",
    "135": "and</w>",
    "136": "ur",
    "137": "Learning</w>",
    "138": "that</w>",
    "139": "ec",
    "140": "dat",
    "141": "tion</w>",
    "142": "mp",
    "143": "ation</w>",
    "144": "or</w>",
    "145": "Py",
    "146": "Pyth",
    "147": "in</w>",
    "148": "of",
    "149": "as",
    "150": "con",
    "151": "ach",
    "152": "the</w>",
    "153": "ken",
    "154": "m</w>",
    "155": "iz",
    "156": "ne",
    "157": "p</w>",
    "158": "ence</w>",
    "159": "co",
    "160": "ts</w>",
    "161": "ans",
    "162": "Python</w>",
    "163": "ac",
    "164": "pre",
    "165": "token",
    "166": "is",
    "167": "s.</w>",
    "168": "ul",
    "169": "ansform",
    "170": "ab",
    "171": "of</w>",
    "172": "ee",
    "173": "val",
    "174": "res",
    "175": "ine</w>",
    "176": "le",
    "177": "us",
    "178": "Tr",
    "179": "le</w>",
    "180": "pro",
    "181": "att",
    "182": "achine</w>",
    "183": "ent</w>",
    "184": "data</w>",
    "185": "ers</w>",
    "186": "model</w>",
    "187": "Transform",
    "188": "dic",
    "189": "un",
    "190": "eep</w>",
    "191": "ag",
    "192": "tex",
    "193": "ain",
    "194": "me",
    "195": "si",
    "196": "lo",
    "197": "di",
    "198": "fic",
    "199": "Machine</w>",
    "200": "Deep</w>",
    "201": "predic",
    "202": "ang",
    "203": "valu",
    "204": "wor",
    "205": "ut",
    "206": "ed</w>",
    "207": "train",
    "208": "tel",
    "209": "st",
    "210": "w</w>",
    "211": "ing?</w>",
    "212": "ut</w>",
    "213": "fici",
    "214": "telli",
    "215": "tellig",
    "216": "ent",
    "217": "ex",
    "218": "mb",
    "219": "su",
    "220": "par",
    "221": "tifici",
    "222": "tificial</w>",
    "223": "ra",
    "224": "it",
    "225": "ch</w>",
    "226": "rep",
    "227": "ma",
    "228": "qu",
    "229": "ci",
    "230": "ith",
    "231": "po",
    "232": "can</w>",
    "233": "en</w>",
    "234": "text</w>",
    "235": "atten",
    "236": "ys",
    "237": "age</w>",
    "238": "learn",
    "239": "id",
    "240": "wh",
    "241": "Dat",
    "242": "Data</w>",
    "243": "Transformers</w>",
    "244": "sed</w>",
    "245": "for</w>",
    "246": "aliz",
    "247": "NL",
    "248": "NLP",
    "249": "angu",
    "250": "token</w>",
    "251": "LL",
    "252": "LLM",
    "253": "LLMs</w>",
    "254": "telligence</w>",
    "255": "e.</w>",
    "256": "An</w>",
    "257": "AI",
    "258": "uc",
    "259": "all",
    "260": "In",
    "261": "cience</w>",
    "262": "mm",
    "263": "ation?</w>",
    "264": "o</w>",
    "265": "cor",
    "266": "NLP</w>",
    "267": "langu",
    "268": "Ar",
    "269": "Artificial</w>",
    "270": "comp",
    "271": "repres",
    "272": "gra",
    "273": "fro",
    "274": "from</w>",
    "275": "put</w>",
    "276": "la",
    "277": "Intelligence</w>",
    "278": "ol",
    "279": "dec",
    "280": "be",
    "281": "language</w>",
    "282": "attention</w>",
    "283": "Science</w>",
    "284": "with",
    "285": "ve</w>",
    "286": "do",
    "287": "data",
    "288": "ener",
    "289": "k</w>",
    "290": "values</w>",
    "291": "AI</w>",
    "292": "ision",
    "293": "ly</w>",
    "294": "t.</w>",
    "295": "ver",
    "296": "cur",
    "297": "net",
    "298": "networ",
    "299": "fi",
    "300": "per",
    "301": "s,</w>",
    "302": "by</w>",
    "303": "ig",
    "304": "gener",
    "305": "amp",
    "306": "ure</w>",
    "307": "ther</w>",
    "308": "eat",
    "309": "sequ",
    "310": "sys",
    "311": "syste",
    "312": "pp",
    "313": "cl",
    "314": "ates</w>",
    "315": "ted</w>",
    "316": "tion?</w>",
    "317": "er?</w>",
    "318": "lay",
    "319": "orm",
    "320": "e?</w>",
    "321": "oc",
    "322": "are</w>",
    "323": "ations</w>",
    "324": "ces",
    "325": "learning</w>",
    "326": "as</w>",
    "327": "into</w>",
    "328": "one</w>",
    "329": "neur",
    "330": "fun",
    "331": "func",
    "332": "used</w>",
    "333": "with</w>",
    "334": "sp",
    "335": "ir",
    "336": "proces",
    "337": "ho",
    "338": "tim",
    "339": "out",
    "340": "str",
    "341": "able</w>",
    "342": "ame",
    "343": "ter</w>",
    "344": "norm",
    "345": "represent",
    "346": "ing.</w>",
    "347": "mak",
    "348": "op",
    "349": "patt",
    "350": "patter",
    "351": "pattern",
    "352": "ect",
    "353": "ds</w>",
    "354": "es.</w>",
    "355": "rec",
    "356": "input</w>",
    "357": "cal",
    "358": "neural</w>",
    "359": "normaliz",
    "360": "other</w>",
    "361": "tokens</w>",
    "362": "ated</w>",
    "363": "app",
    "364": "de",
    "365": "os",
    "366": "no",
    "367": "decision",
    "368": "des",
    "369": "how</w>",
    "370": "y.</w>",
    "371": "'s</w>",
    "372": "ampl",
    "373": "prediction",
    "374": "we",
    "375": "its</w>",
    "376": "clas",
    "377": "feat",
    "378": "ure",
    "379": "training</w>",
    "380": "parame",
    "381": "tiv",
    "382": "scor",
    "383": "tas",
    "384": "gn",
    "385": "rel",
    "386": "learn</w>",
    "387": "whi",
    "388": "ular",
    "389": "igh",
    "390": "Transformer</w>",
    "391": "tional</w>",
    "392": "sequenc",
    "393": "fin",
    "394": "ge</w>",
    "395": "act",
    "396": "rul",
    "397": "so</w>",
    "398": "use</w>",
    "399": "uses</w>",
    "400": "ps</w>",
    "401": "set</w>",
    "402": "cont",
    "403": "nu",
    "404": "der",
    "405": "ures</w>",
    "406": "abi",
    "407": "abili",
    "408": "network",
    "409": "function</w>",
    "410": "gradi",
    "411": "each",
    "412": "each</w>",
    "413": "sm",
    "414": "small",
    "415": "comm",
    "416": "system</w>",
    "417": "prob",
    "418": "inform",
    "419": "patterns</w>",
    "420": "ual</w>",
    "421": "ff",
    "422": "bec",
    "423": "transform",
    "424": "struc",
    "425": "value</w>",
    "426": "model's</w>",
    "427": "ting</w>",
    "428": "x</w>",
    "429": "ri",
    "430": "ad",
    "431": "ed",
    "432": "il",
    "433": "anal",
    "434": "reco",
    "435": "recogn",
    "436": "ob",
    "437": "ment</w>",
    "438": "cho",
    "439": "pl",
    "440": "olu",
    "441": "it</w>",
    "442": "the",
    "443": "using</w>",
    "444": "information</w>",
    "445": "ents</w>",
    "446": "such</w>",
    "447": "text.</w>",
    "448": "ter",
    "449": "mat",
    "450": "rou",
    "451": "sion",
    "452": "var",
    "453": "ty</w>",
    "454": "uring</w>",
    "455": "est</w>",
    "456": "comple",
    "457": "when</w>",
    "458": "use",
    "459": "ful",
    "460": "am",
    "461": "posi",
    "462": "mor",
    "463": "training.</w>",
    "464": "befor",
    "465": "before</w>",
    "466": "output</w>",
    "467": "pr",
    "468": "ulti",
    "469": "network</w>",
    "470": "on?</w>",
    "471": "activ",
    "472": "mo",
    "473": "tri",
    "474": "process",
    "475": "emb",
    "476": "embed",
    "477": "embedd",
    "478": "ocab",
    "479": "ocabular",
    "480": "ke",
    "481": "artificial</w>",
    "482": "system",
    "483": "task",
    "484": "so",
    "485": "analys",
    "486": "representation</w>",
    "487": "stor",
    "488": "sh",
    "489": "progra",
    "490": "ic</w>",
    "491": "data.</w>",
    "492": "tic",
    "493": "diff",
    "494": "y,</w>",
    "495": "exampl",
    "496": "examples</w>",
    "497": "hel",
    "498": "chang",
    "499": "conver",
    "500": "sel",
    "501": "ate</w>",
    "502": "while</w>",
    "503": "ran",
    "504": "vi",
    "505": "ge",
    "506": "vari",
    "507": "meas",
    "508": "during</w>",
    "509": "fit",
    "510": "new</w>",
    "511": "useful"
  }
}